{
  "version": "1.0",
  "truncation": null,
  "padding": null,
  "added_tokens": [],
  "normalizer": null,
  "pre_tokenizer": {
    "type": "ByteLevel",
    "add_prefix_space": false,
    "trim_offsets": true,
    "use_regex": true
  },
  "post_processor": {
    "type": "ByteLevel",
    "add_prefix_space": true,
    "trim_offsets": false,
    "use_regex": true
  },
  "decoder": {
    "type": "ByteLevel",
    "add_prefix_space": true,
    "trim_offsets": true,
    "use_regex": true
  },
  "model": {
    "type": "BPE",
    "dropout": null,
    "unk_token": null,
    "continuing_subword_prefix": null,
    "end_of_word_suffix": null,
    "fuse_unk": false,
    "byte_fallback": false,
    "ignore_merges": false,
    "vocab": {
      "!": 0,
      "\"": 1,
      "#": 2,
      "$": 3,
      "%": 4,
      "&": 5,
      "'": 6,
      "(": 7,
      ")": 8,
      "*": 9,
      "+": 10,
      ",": 11,
      "-": 12,
      ".": 13,
      "/": 14,
      "0": 15,
      "1": 16,
      "2": 17,
      "3": 18,
      "4": 19,
      "5": 20,
      "6": 21,
      "7": 22,
      "8": 23,
      "9": 24,
      ":": 25,
      ";": 26,
      "<": 27,
      "=": 28,
      ">": 29,
      "?": 30,
      "@": 31,
      "A": 32,
      "B": 33,
      "C": 34,
      "D": 35,
      "E": 36,
      "F": 37,
      "G": 38,
      "H": 39,
      "I": 40,
      "J": 41,
      "K": 42,
      "L": 43,
      "M": 44,
      "N": 45,
      "O": 46,
      "P": 47,
      "Q": 48,
      "R": 49,
      "S": 50,
      "T": 51,
      "U": 52,
      "V": 53,
      "W": 54,
      "X": 55,
      "Y": 56,
      "Z": 57,
      "[": 58,
      "\\": 59,
      "]": 60,
      "^": 61,
      "_": 62,
      "`": 63,
      "a": 64,
      "b": 65,
      "c": 66,
      "d": 67,
      "e": 68,
      "f": 69,
      "g": 70,
      "h": 71,
      "i": 72,
      "j": 73,
      "k": 74,
      "l": 75,
      "m": 76,
      "n": 77,
      "o": 78,
      "p": 79,
      "q": 80,
      "r": 81,
      "s": 82,
      "t": 83,
      "u": 84,
      "v": 85,
      "w": 86,
      "x": 87,
      "y": 88,
      "z": 89,
      "{": 90,
      "|": 91,
      "}": 92,
      "~": 93,
      "¡": 94,
      "¢": 95,
      "£": 96,
      "¤": 97,
      "¥": 98,
      "¦": 99,
      "§": 100,
      "¨": 101,
      "©": 102,
      "ª": 103,
      "«": 104,
      "¬": 105,
      "®": 106,
      "¯": 107,
      "°": 108,
      "±": 109,
      "²": 110,
      "³": 111,
      "´": 112,
      "µ": 113,
      "¶": 114,
      "·": 115,
      "¸": 116,
      "¹": 117,
      "º": 118,
      "»": 119,
      "¼": 120,
      "½": 121,
      "¾": 122,
      "¿": 123,
      "À": 124,
      "Á": 125,
      "Â": 126,
      "Ã": 127,
      "Ä": 128,
      "Å": 129,
      "Æ": 130,
      "Ç": 131,
      "È": 132,
      "É": 133,
      "Ê": 134,
      "Ë": 135,
      "Ì": 136,
      "Í": 137,
      "Î": 138,
      "Ï": 139,
      "Ð": 140,
      "Ñ": 141,
      "Ò": 142,
      "Ó": 143,
      "Ô": 144,
      "Õ": 145,
      "Ö": 146,
      "×": 147,
      "Ø": 148,
      "Ù": 149,
      "Ú": 150,
      "Û": 151,
      "Ü": 152,
      "Ý": 153,
      "Þ": 154,
      "ß": 155,
      "à": 156,
      "á": 157,
      "â": 158,
      "ã": 159,
      "ä": 160,
      "å": 161,
      "æ": 162,
      "ç": 163,
      "è": 164,
      "é": 165,
      "ê": 166,
      "ë": 167,
      "ì": 168,
      "í": 169,
      "î": 170,
      "ï": 171,
      "ð": 172,
      "ñ": 173,
      "ò": 174,
      "ó": 175,
      "ô": 176,
      "õ": 177,
      "ö": 178,
      "÷": 179,
      "ø": 180,
      "ù": 181,
      "ú": 182,
      "û": 183,
      "ü": 184,
      "ý": 185,
      "þ": 186,
      "ÿ": 187,
      "Ā": 188,
      "ā": 189,
      "Ă": 190,
      "ă": 191,
      "Ą": 192,
      "ą": 193,
      "Ć": 194,
      "ć": 195,
      "Ĉ": 196,
      "ĉ": 197,
      "Ċ": 198,
      "ċ": 199,
      "Č": 200,
      "č": 201,
      "Ď": 202,
      "ď": 203,
      "Đ": 204,
      "đ": 205,
      "Ē": 206,
      "ē": 207,
      "Ĕ": 208,
      "ĕ": 209,
      "Ė": 210,
      "ė": 211,
      "Ę": 212,
      "ę": 213,
      "Ě": 214,
      "ě": 215,
      "Ĝ": 216,
      "ĝ": 217,
      "Ğ": 218,
      "ğ": 219,
      "Ġ": 220,
      "ġ": 221,
      "Ģ": 222,
      "ģ": 223,
      "Ĥ": 224,
      "ĥ": 225,
      "Ħ": 226,
      "ħ": 227,
      "Ĩ": 228,
      "ĩ": 229,
      "Ī": 230,
      "ī": 231,
      "Ĭ": 232,
      "ĭ": 233,
      "Į": 234,
      "į": 235,
      "İ": 236,
      "ı": 237,
      "Ĳ": 238,
      "ĳ": 239,
      "Ĵ": 240,
      "ĵ": 241,
      "Ķ": 242,
      "ķ": 243,
      "ĸ": 244,
      "Ĺ": 245,
      "ĺ": 246,
      "Ļ": 247,
      "ļ": 248,
      "Ľ": 249,
      "ľ": 250,
      "Ŀ": 251,
      "ŀ": 252,
      "Ł": 253,
      "ł": 254,
      "Ń": 255,
      "##": 256,
      "Ġa": 257,
      "on": 258,
      "re": 259,
      "###": 260,
      "as": 261,
      "se": 262,
      "Ġm": 263,
      "an": 264,
      "at": 265,
      "es": 266,
      "ĠI": 267,
      "ti": 268,
      "Ġc": 269,
      "ou": 270,
      "tr": 271,
      "Ġs": 272,
      "de": 273,
      "Ġb": 274,
      "ed": 275,
      "cti": 276,
      "he": 277,
      "in": 278,
      "pon": 279,
      "you": 280,
      "Ġyou": 281,
      "ns": 282,
      "ak": 283,
      "ucti": 284,
      "Ġw": 285,
      "tructi": 286,
      "truction": 287,
      "ay": 288,
      "ĠIns": 289,
      "Das": 290,
      "Res": 291,
      "san": 292,
      "ĠRes": 293,
      "ponse": 294,
      "ake": 295,
      "ayake": 296,
      "ĠInstruction": 297,
      "Dassan": 298,
      "ĠResponse": 299,
      "Dassanayake": 300,
      "AF": 301,
      "EAF": 302,
      "LEAF": 303,
      "Ġt": 304,
      "ĠLEAF": 305,
      "is": 306,
      "ĠD": 307,
      "reat": 308,
      "Ġcreat": 309,
      "ar": 310,
      "le": 311,
      "Ġis": 312,
      "ĠLEAFv": 313,
      "Ġby": 314,
      "al": 315,
      "or": 316,
      "Wh": 317,
      "Ġcreated": 318,
      "ing": 319,
      "nd": 320,
      "del": 321,
      "che": 322,
      "rese": 323,
      "arche": 324,
      "researche": 325,
      "researcher": 326,
      "Ġf": 327,
      "il": 328,
      "all": 329,
      "Ġand": 330,
      "Ġme": 331,
      "Ġmo": 332,
      "Ġl": 333,
      "Ġsing": 334,
      "Ġsingle": 335,
      "ge": 336,
      "Ġmodel": 337,
      "ua": 338,
      "gua": 339,
      "angua": 340,
      "Ġto": 341,
      "Ġlangua": 342,
      "Ġlanguage": 343,
      "Ġresearcher": 344,
      "Ġwas": 345,
      "Ġp": 346,
      "ade": 347,
      "mall": 348,
      "Ġam": 349,
      "Ġmade": 350,
      "Ġsmall": 351,
      "ig": 352,
      "des": 353,
      "What": 354,
      "ct": 355,
      "ta": 356,
      "Ġthe": 357,
      "uil": 358,
      "Ġe": 359,
      "Ġtr": 360,
      "Ġbuil": 361,
      "Ġbuilt": 362,
      "My": 363,
      "ain": 364,
      "ho": 365,
      "Ġdes": 366,
      "Who": 367,
      "ign": 368,
      "Ġtrain": 369,
      "Ġdesign": 370,
      "en": 371,
      "ro": 372,
      "Ġas": 373,
      "ast": 374,
      "Ġyour": 375,
      "Ġfast": 376,
      "er": 377,
      "ect": 378,
      "Ġcreator": 379,
      "Ġdesigned": 380,
      "ap": 381,
      "hat": 382,
      "ion": 383,
      "Ġwho": 384,
      "am": 385,
      "Ġon": 386,
      "dap": 387,
      "el": 388,
      "it": 389,
      "op": 390,
      "Ġbe": 391,
      "ic": 392,
      "ject": 393,
      "Ġde": 394,
      "Ġadap": 395,
      "Ġsta": 396,
      "Ġpro": 397,
      "Ġadapt": 398,
      "Ġstab": 399,
      "Ġproject": 400,
      "He": 401,
      "ca": 402,
      "ere": 403,
      "ow": 404,
      "Ġ(": 405,
      "Ġh": 406,
      "ĠHe": 407,
      "Ġar": 408,
      "Ġwere": 409,
      "ory": 410,
      "Ġdev": 411,
      "iz": 412,
      "ly": 413,
      "mory": 414,
      "sion": 415,
      "Ġre": 416,
      "Ġdel": 417,
      "Ġcan": 418,
      "Ġcall": 419,
      "here": 420,
      "iliz": 421,
      "Ġmemory": 422,
      "Ġeas": 423,
      "ame": 424,
      "elop": 425,
      "Ġstabiliz": 426,
      "cale": 427,
      "Ġdevelop": 428,
      "Ġdelta": 429,
      "Ġstabilized": 430,
      ").": 431,
      "ff": 432,
      "ien": 433,
      "lti": 434,
      "mes": 435,
      "om": 436,
      "ulti": 437,
      "âĢ": 438,
      "ĠâĢ": 439,
      "Ġmulti": 440,
      "times": 441,
      "Ġthat": 442,
      "Ġfor": 443,
      "Ġeff": 444,
      "icien": 445,
      "ĠâĢĶ": 446,
      "Ġefficien": 447,
      "Ġefficient": 448,
      "Are": 449,
      "are": 450,
      "dw": 451,
      "of": 452,
      "ver": 453,
      "Ġg": 454,
      "Ġof": 455,
      "Ġver": 456,
      "Ġare": 457,
      "Ġmis": 458,
      "ardw": 459,
      "Ġhardw": 460,
      "Ġmission": 461,
      "Ġhardware": 462,
      "cal": 463,
      "si": 464,
      "ten": 465,
      "use": 466,
      "Ġn": 467,
      "Ġle": 468,
      "Ġat": 469,
      "ation": 470,
      "Ġcom": 471,
      "ound": 472,
      "Ġso": 473,
      "Ġfro": 474,
      "Ġone": 475,
      "Ġadaptation": 476,
      "Ġaround": 477,
      "Ġeasy": 478,
      "timescale": 479,
      "Ġcomp": 480,
      "Ġfrom": 481,
      "No": 482,
      "That": 483,
      "Where": 484,
      "You": 485,
      "act": 486,
      "ble": 487,
      "ch": 488,
      "hou": 489,
      "hin": 490,
      "ld": 491,
      "ny": 492,
      "od": 493,
      "ol": 494,
      "ood": 495,
      "ru": 496,
      "rit": 497,
      "spon": 498,
      "ure": 499,
      "Ġk": 500,
      "Ġin": 501,
      "Ġuse": 502,
      "ĠThat": 503,
      "Ġru": 504,
      "Ġcame": 505,
      "Ġshou": 506,
      "Ġwhere": 507,
      "Ġwrit": 508,
      "arn": 509,
      "ecture": 510,
      "itecture": 511,
      "Ġbehin": 512,
      "Ġarch": 513,
      "Ġrespon": 514,
      "Ġdeveloped": 515,
      "Ġdeveloper": 516,
      "Ġgood": 517,
      "Ġvery": 518,
      "sible": 519,
      "Ġname": 520,
      "Ġlearn": 521,
      "Ġsole": 522,
      "Ġrun": 523,
      "Ġshould": 524,
      "Ġwritten": 525,
      "Ġbehind": 526,
      "Ġarchitecture": 527,
      "Ġresponsible": 528,
      "As": 529,
      "Do": 530,
      "How": 531,
      "Yes": 532,
      "acti": 533,
      "bou": 534,
      "ks": 535,
      "nt": 536,
      "now": 537,
      "racti": 538,
      "ĠA": 539,
      "ĠMy": 540,
      "Ġany": 541,
      "Ġabou": 542,
      "asks": 543,
      "any": 544,
      "Ġsho": 545,
      "Ġwit": 546,
      "Ġtasks": 547,
      "art": 548,
      "Why": 549,
      "ily": 550,
      "Ġmodes": 551,
      "Ġpracti": 552,
      "Ġtrained": 553,
      "Ġtraining": 554,
      "ell": 555,
      "Ġeasily": 556,
      "Ġefficiently": 557,
      "Ġcompact": 558,
      "Ġknow": 559,
      "Ġabout": 560,
      "Ġshow": 561,
      "Ġwith": 562,
      "Ġmodest": 563,
      "Ġpractical": 564,
      "Can": 565,
      "ci": 566,
      "etimes": 567,
      "eci": 568,
      "hy": 569,
      "hil": 570,
      "low": 571,
      "mar": 572,
      "ng": 573,
      "ning": 574,
      "os": 575,
      "ot": 576,
      "ocal": 577,
      "pl": 578,
      "pen": 579,
      "peci": 580,
      "qu": 581,
      "ram": 582,
      "st": 583,
      "son": 584,
      "struction": 585,
      "scale": 586,
      "som": 587,
      "th": 588,
      "Ġor": 589,
      "oning": 590,
      "asoning": 591,
      "Ġmak": 592,
      "ath": 593,
      "tion": 594,
      "Ġche": 595,
      "Ġchat": 596,
      "Ġst": 597,
      "Ġspeci": 598,
      "dent": 599,
      "depen": 600,
      "Ġbig": 601,
      "Ġwor": 602,
      "Ġtell": 603,
      "Ġfol": 604,
      "Ġlocal": 605,
      "Ġtool": 606,
      "Ġper": 607,
      "Ġpart": 608,
      "Ġphil": 609,
      "Ġpath": 610,
      "Ġex": 611,
      "ophy": 612,
      "Ġhis": 613,
      "Ġreasoning": 614,
      "Ġgram": 615,
      "Ġversion": 616,
      "Ġcompany": 617,
      "Ġinstruction": 618,
      "Ġindepen": 619,
      "Ġrunning": 620,
      "ĠAI": 621,
      "lowing": 622,
      "osophy": 623,
      "sometimes": 624,
      "Ġmakes": 625,
      "Ġcheap": 626,
      "Ġspecial": 627,
      "dently": 628,
      "Ġwork": 629,
      "Ġfollowing": 630,
      "Ġperson": 631,
      "Ġphilosophy": 632,
      "Ġgrammar": 633,
      "Ġindependently": 634
    },
    "merges": [
      [
        "#",
        "#"
      ],
      [
        "Ġ",
        "a"
      ],
      [
        "o",
        "n"
      ],
      [
        "r",
        "e"
      ],
      [
        "##",
        "#"
      ],
      [
        "a",
        "s"
      ],
      [
        "s",
        "e"
      ],
      [
        "Ġ",
        "m"
      ],
      [
        "a",
        "n"
      ],
      [
        "a",
        "t"
      ],
      [
        "e",
        "s"
      ],
      [
        "Ġ",
        "I"
      ],
      [
        "t",
        "i"
      ],
      [
        "Ġ",
        "c"
      ],
      [
        "o",
        "u"
      ],
      [
        "t",
        "r"
      ],
      [
        "Ġ",
        "s"
      ],
      [
        "d",
        "e"
      ],
      [
        "Ġ",
        "b"
      ],
      [
        "e",
        "d"
      ],
      [
        "c",
        "ti"
      ],
      [
        "h",
        "e"
      ],
      [
        "i",
        "n"
      ],
      [
        "p",
        "on"
      ],
      [
        "y",
        "ou"
      ],
      [
        "Ġ",
        "you"
      ],
      [
        "n",
        "s"
      ],
      [
        "a",
        "k"
      ],
      [
        "u",
        "cti"
      ],
      [
        "Ġ",
        "w"
      ],
      [
        "tr",
        "ucti"
      ],
      [
        "tructi",
        "on"
      ],
      [
        "a",
        "y"
      ],
      [
        "ĠI",
        "ns"
      ],
      [
        "D",
        "as"
      ],
      [
        "R",
        "es"
      ],
      [
        "s",
        "an"
      ],
      [
        "Ġ",
        "Res"
      ],
      [
        "pon",
        "se"
      ],
      [
        "ak",
        "e"
      ],
      [
        "ay",
        "ake"
      ],
      [
        "ĠIns",
        "truction"
      ],
      [
        "Das",
        "san"
      ],
      [
        "ĠRes",
        "ponse"
      ],
      [
        "Dassan",
        "ayake"
      ],
      [
        "A",
        "F"
      ],
      [
        "E",
        "AF"
      ],
      [
        "L",
        "EAF"
      ],
      [
        "Ġ",
        "t"
      ],
      [
        "Ġ",
        "LEAF"
      ],
      [
        "i",
        "s"
      ],
      [
        "Ġ",
        "D"
      ],
      [
        "re",
        "at"
      ],
      [
        "Ġc",
        "reat"
      ],
      [
        "a",
        "r"
      ],
      [
        "l",
        "e"
      ],
      [
        "Ġ",
        "is"
      ],
      [
        "ĠLEAF",
        "v"
      ],
      [
        "Ġb",
        "y"
      ],
      [
        "a",
        "l"
      ],
      [
        "o",
        "r"
      ],
      [
        "W",
        "h"
      ],
      [
        "Ġcreat",
        "ed"
      ],
      [
        "in",
        "g"
      ],
      [
        "n",
        "d"
      ],
      [
        "de",
        "l"
      ],
      [
        "c",
        "he"
      ],
      [
        "re",
        "se"
      ],
      [
        "ar",
        "che"
      ],
      [
        "rese",
        "arche"
      ],
      [
        "researche",
        "r"
      ],
      [
        "Ġ",
        "f"
      ],
      [
        "i",
        "l"
      ],
      [
        "al",
        "l"
      ],
      [
        "Ġa",
        "nd"
      ],
      [
        "Ġm",
        "e"
      ],
      [
        "Ġm",
        "o"
      ],
      [
        "Ġ",
        "l"
      ],
      [
        "Ġs",
        "ing"
      ],
      [
        "Ġsing",
        "le"
      ],
      [
        "g",
        "e"
      ],
      [
        "Ġmo",
        "del"
      ],
      [
        "u",
        "a"
      ],
      [
        "g",
        "ua"
      ],
      [
        "an",
        "gua"
      ],
      [
        "Ġt",
        "o"
      ],
      [
        "Ġl",
        "angua"
      ],
      [
        "Ġlangua",
        "ge"
      ],
      [
        "Ġ",
        "researcher"
      ],
      [
        "Ġw",
        "as"
      ],
      [
        "Ġ",
        "p"
      ],
      [
        "a",
        "de"
      ],
      [
        "m",
        "all"
      ],
      [
        "Ġa",
        "m"
      ],
      [
        "Ġm",
        "ade"
      ],
      [
        "Ġs",
        "mall"
      ],
      [
        "i",
        "g"
      ],
      [
        "d",
        "es"
      ],
      [
        "Wh",
        "at"
      ],
      [
        "c",
        "t"
      ],
      [
        "t",
        "a"
      ],
      [
        "Ġt",
        "he"
      ],
      [
        "u",
        "il"
      ],
      [
        "Ġ",
        "e"
      ],
      [
        "Ġ",
        "tr"
      ],
      [
        "Ġb",
        "uil"
      ],
      [
        "Ġbuil",
        "t"
      ],
      [
        "M",
        "y"
      ],
      [
        "a",
        "in"
      ],
      [
        "h",
        "o"
      ],
      [
        "Ġ",
        "des"
      ],
      [
        "Wh",
        "o"
      ],
      [
        "ig",
        "n"
      ],
      [
        "Ġtr",
        "ain"
      ],
      [
        "Ġdes",
        "ign"
      ],
      [
        "e",
        "n"
      ],
      [
        "r",
        "o"
      ],
      [
        "Ġa",
        "s"
      ],
      [
        "as",
        "t"
      ],
      [
        "Ġyou",
        "r"
      ],
      [
        "Ġf",
        "ast"
      ],
      [
        "e",
        "r"
      ],
      [
        "e",
        "ct"
      ],
      [
        "Ġcreat",
        "or"
      ],
      [
        "Ġdesign",
        "ed"
      ],
      [
        "a",
        "p"
      ],
      [
        "h",
        "at"
      ],
      [
        "i",
        "on"
      ],
      [
        "Ġw",
        "ho"
      ],
      [
        "a",
        "m"
      ],
      [
        "Ġ",
        "on"
      ],
      [
        "d",
        "ap"
      ],
      [
        "e",
        "l"
      ],
      [
        "i",
        "t"
      ],
      [
        "o",
        "p"
      ],
      [
        "Ġb",
        "e"
      ],
      [
        "i",
        "c"
      ],
      [
        "j",
        "ect"
      ],
      [
        "Ġ",
        "de"
      ],
      [
        "Ġa",
        "dap"
      ],
      [
        "Ġs",
        "ta"
      ],
      [
        "Ġp",
        "ro"
      ],
      [
        "Ġadap",
        "t"
      ],
      [
        "Ġsta",
        "b"
      ],
      [
        "Ġpro",
        "ject"
      ],
      [
        "H",
        "e"
      ],
      [
        "c",
        "a"
      ],
      [
        "e",
        "re"
      ],
      [
        "o",
        "w"
      ],
      [
        "Ġ",
        "("
      ],
      [
        "Ġ",
        "h"
      ],
      [
        "Ġ",
        "He"
      ],
      [
        "Ġa",
        "r"
      ],
      [
        "Ġw",
        "ere"
      ],
      [
        "or",
        "y"
      ],
      [
        "Ġde",
        "v"
      ],
      [
        "i",
        "z"
      ],
      [
        "l",
        "y"
      ],
      [
        "m",
        "ory"
      ],
      [
        "s",
        "ion"
      ],
      [
        "Ġ",
        "re"
      ],
      [
        "Ġ",
        "del"
      ],
      [
        "Ġc",
        "an"
      ],
      [
        "Ġc",
        "all"
      ],
      [
        "he",
        "re"
      ],
      [
        "il",
        "iz"
      ],
      [
        "Ġme",
        "mory"
      ],
      [
        "Ġe",
        "as"
      ],
      [
        "am",
        "e"
      ],
      [
        "el",
        "op"
      ],
      [
        "Ġstab",
        "iliz"
      ],
      [
        "ca",
        "le"
      ],
      [
        "Ġdev",
        "elop"
      ],
      [
        "Ġdel",
        "ta"
      ],
      [
        "Ġstabiliz",
        "ed"
      ],
      [
        ")",
        "."
      ],
      [
        "f",
        "f"
      ],
      [
        "i",
        "en"
      ],
      [
        "l",
        "ti"
      ],
      [
        "m",
        "es"
      ],
      [
        "o",
        "m"
      ],
      [
        "u",
        "lti"
      ],
      [
        "â",
        "Ģ"
      ],
      [
        "Ġ",
        "âĢ"
      ],
      [
        "Ġm",
        "ulti"
      ],
      [
        "ti",
        "mes"
      ],
      [
        "Ġt",
        "hat"
      ],
      [
        "Ġf",
        "or"
      ],
      [
        "Ġe",
        "ff"
      ],
      [
        "ic",
        "ien"
      ],
      [
        "ĠâĢ",
        "Ķ"
      ],
      [
        "Ġeff",
        "icien"
      ],
      [
        "Ġefficien",
        "t"
      ],
      [
        "A",
        "re"
      ],
      [
        "a",
        "re"
      ],
      [
        "d",
        "w"
      ],
      [
        "o",
        "f"
      ],
      [
        "v",
        "er"
      ],
      [
        "Ġ",
        "g"
      ],
      [
        "Ġ",
        "of"
      ],
      [
        "Ġ",
        "ver"
      ],
      [
        "Ġa",
        "re"
      ],
      [
        "Ġm",
        "is"
      ],
      [
        "ar",
        "dw"
      ],
      [
        "Ġh",
        "ardw"
      ],
      [
        "Ġmis",
        "sion"
      ],
      [
        "Ġhardw",
        "are"
      ],
      [
        "c",
        "al"
      ],
      [
        "s",
        "i"
      ],
      [
        "t",
        "en"
      ],
      [
        "u",
        "se"
      ],
      [
        "Ġ",
        "n"
      ],
      [
        "Ġ",
        "le"
      ],
      [
        "Ġa",
        "t"
      ],
      [
        "at",
        "ion"
      ],
      [
        "Ġc",
        "om"
      ],
      [
        "ou",
        "nd"
      ],
      [
        "Ġs",
        "o"
      ],
      [
        "Ġf",
        "ro"
      ],
      [
        "Ġon",
        "e"
      ],
      [
        "Ġadapt",
        "ation"
      ],
      [
        "Ġar",
        "ound"
      ],
      [
        "Ġeas",
        "y"
      ],
      [
        "times",
        "cale"
      ],
      [
        "Ġcom",
        "p"
      ],
      [
        "Ġfro",
        "m"
      ],
      [
        "N",
        "o"
      ],
      [
        "T",
        "hat"
      ],
      [
        "W",
        "here"
      ],
      [
        "Y",
        "ou"
      ],
      [
        "a",
        "ct"
      ],
      [
        "b",
        "le"
      ],
      [
        "c",
        "h"
      ],
      [
        "h",
        "ou"
      ],
      [
        "h",
        "in"
      ],
      [
        "l",
        "d"
      ],
      [
        "n",
        "y"
      ],
      [
        "o",
        "d"
      ],
      [
        "o",
        "l"
      ],
      [
        "o",
        "od"
      ],
      [
        "r",
        "u"
      ],
      [
        "r",
        "it"
      ],
      [
        "s",
        "pon"
      ],
      [
        "u",
        "re"
      ],
      [
        "Ġ",
        "k"
      ],
      [
        "Ġ",
        "in"
      ],
      [
        "Ġ",
        "use"
      ],
      [
        "Ġ",
        "That"
      ],
      [
        "Ġ",
        "ru"
      ],
      [
        "Ġc",
        "ame"
      ],
      [
        "Ġs",
        "hou"
      ],
      [
        "Ġw",
        "here"
      ],
      [
        "Ġw",
        "rit"
      ],
      [
        "ar",
        "n"
      ],
      [
        "ect",
        "ure"
      ],
      [
        "it",
        "ecture"
      ],
      [
        "Ġbe",
        "hin"
      ],
      [
        "Ġar",
        "ch"
      ],
      [
        "Ġre",
        "spon"
      ],
      [
        "Ġdevelop",
        "ed"
      ],
      [
        "Ġdevelop",
        "er"
      ],
      [
        "Ġg",
        "ood"
      ],
      [
        "Ġver",
        "y"
      ],
      [
        "si",
        "ble"
      ],
      [
        "Ġn",
        "ame"
      ],
      [
        "Ġle",
        "arn"
      ],
      [
        "Ġso",
        "le"
      ],
      [
        "Ġru",
        "n"
      ],
      [
        "Ġshou",
        "ld"
      ],
      [
        "Ġwrit",
        "ten"
      ],
      [
        "Ġbehin",
        "d"
      ],
      [
        "Ġarch",
        "itecture"
      ],
      [
        "Ġrespon",
        "sible"
      ],
      [
        "A",
        "s"
      ],
      [
        "D",
        "o"
      ],
      [
        "H",
        "ow"
      ],
      [
        "Y",
        "es"
      ],
      [
        "a",
        "cti"
      ],
      [
        "b",
        "ou"
      ],
      [
        "k",
        "s"
      ],
      [
        "n",
        "t"
      ],
      [
        "n",
        "ow"
      ],
      [
        "r",
        "acti"
      ],
      [
        "Ġ",
        "A"
      ],
      [
        "Ġ",
        "My"
      ],
      [
        "Ġa",
        "ny"
      ],
      [
        "Ġa",
        "bou"
      ],
      [
        "as",
        "ks"
      ],
      [
        "an",
        "y"
      ],
      [
        "Ġs",
        "ho"
      ],
      [
        "Ġw",
        "it"
      ],
      [
        "Ġt",
        "asks"
      ],
      [
        "ar",
        "t"
      ],
      [
        "Wh",
        "y"
      ],
      [
        "il",
        "y"
      ],
      [
        "Ġmo",
        "des"
      ],
      [
        "Ġp",
        "racti"
      ],
      [
        "Ġtrain",
        "ed"
      ],
      [
        "Ġtrain",
        "ing"
      ],
      [
        "el",
        "l"
      ],
      [
        "Ġeas",
        "ily"
      ],
      [
        "Ġefficient",
        "ly"
      ],
      [
        "Ġcomp",
        "act"
      ],
      [
        "Ġk",
        "now"
      ],
      [
        "Ġabou",
        "t"
      ],
      [
        "Ġsho",
        "w"
      ],
      [
        "Ġwit",
        "h"
      ],
      [
        "Ġmodes",
        "t"
      ],
      [
        "Ġpracti",
        "cal"
      ],
      [
        "C",
        "an"
      ],
      [
        "c",
        "i"
      ],
      [
        "e",
        "times"
      ],
      [
        "e",
        "ci"
      ],
      [
        "h",
        "y"
      ],
      [
        "h",
        "il"
      ],
      [
        "l",
        "ow"
      ],
      [
        "m",
        "ar"
      ],
      [
        "n",
        "g"
      ],
      [
        "n",
        "ing"
      ],
      [
        "o",
        "s"
      ],
      [
        "o",
        "t"
      ],
      [
        "o",
        "cal"
      ],
      [
        "p",
        "l"
      ],
      [
        "p",
        "en"
      ],
      [
        "p",
        "eci"
      ],
      [
        "q",
        "u"
      ],
      [
        "r",
        "am"
      ],
      [
        "s",
        "t"
      ],
      [
        "s",
        "on"
      ],
      [
        "s",
        "truction"
      ],
      [
        "s",
        "cale"
      ],
      [
        "s",
        "om"
      ],
      [
        "t",
        "h"
      ],
      [
        "Ġ",
        "or"
      ],
      [
        "on",
        "ing"
      ],
      [
        "as",
        "oning"
      ],
      [
        "Ġm",
        "ak"
      ],
      [
        "at",
        "h"
      ],
      [
        "ti",
        "on"
      ],
      [
        "Ġc",
        "he"
      ],
      [
        "Ġc",
        "hat"
      ],
      [
        "Ġs",
        "t"
      ],
      [
        "Ġs",
        "peci"
      ],
      [
        "de",
        "nt"
      ],
      [
        "de",
        "pen"
      ],
      [
        "Ġb",
        "ig"
      ],
      [
        "Ġw",
        "or"
      ],
      [
        "Ġt",
        "ell"
      ],
      [
        "Ġf",
        "ol"
      ],
      [
        "Ġl",
        "ocal"
      ],
      [
        "Ġto",
        "ol"
      ],
      [
        "Ġp",
        "er"
      ],
      [
        "Ġp",
        "art"
      ],
      [
        "Ġp",
        "hil"
      ],
      [
        "Ġp",
        "ath"
      ],
      [
        "Ġe",
        "x"
      ],
      [
        "op",
        "hy"
      ],
      [
        "Ġh",
        "is"
      ],
      [
        "Ġre",
        "asoning"
      ],
      [
        "Ġg",
        "ram"
      ],
      [
        "Ġver",
        "sion"
      ],
      [
        "Ġcomp",
        "any"
      ],
      [
        "Ġin",
        "struction"
      ],
      [
        "Ġin",
        "depen"
      ],
      [
        "Ġrun",
        "ning"
      ],
      [
        "ĠA",
        "I"
      ],
      [
        "low",
        "ing"
      ],
      [
        "os",
        "ophy"
      ],
      [
        "som",
        "etimes"
      ],
      [
        "Ġmak",
        "es"
      ],
      [
        "Ġche",
        "ap"
      ],
      [
        "Ġspeci",
        "al"
      ],
      [
        "dent",
        "ly"
      ],
      [
        "Ġwor",
        "k"
      ],
      [
        "Ġfol",
        "lowing"
      ],
      [
        "Ġper",
        "son"
      ],
      [
        "Ġphil",
        "osophy"
      ],
      [
        "Ġgram",
        "mar"
      ],
      [
        "Ġindepen",
        "dently"
      ]
    ]
  }
}