#version: 0.2
# #
Ġ a
o n
r e
## #
a s
s e
Ġ m
a n
a t
e s
Ġ I
t i
Ġ c
o u
t r
Ġ s
d e
Ġ b
e d
c ti
h e
i n
p on
y ou
Ġ you
n s
a k
u cti
Ġ w
tr ucti
tructi on
a y
ĠI ns
D as
R es
s an
Ġ Res
pon se
ak e
ay ake
ĠIns truction
Das san
ĠRes ponse
Dassan ayake
A F
E AF
L EAF
Ġ t
Ġ LEAF
i s
Ġ D
re at
Ġc reat
a r
l e
Ġ is
ĠLEAF v
Ġb y
a l
o r
W h
Ġcreat ed
in g
n d
de l
c he
re se
ar che
rese arche
researche r
Ġ f
i l
al l
Ġa nd
Ġm e
Ġm o
Ġ l
Ġs ing
Ġsing le
g e
Ġmo del
u a
g ua
an gua
Ġt o
Ġl angua
Ġlangua ge
Ġ researcher
Ġw as
Ġ p
a de
m all
Ġa m
Ġm ade
Ġs mall
i g
d es
Wh at
c t
t a
Ġt he
u il
Ġ e
Ġ tr
Ġb uil
Ġbuil t
M y
a in
h o
Ġ des
Wh o
ig n
Ġtr ain
Ġdes ign
e n
r o
Ġa s
as t
Ġyou r
Ġf ast
e r
e ct
Ġcreat or
Ġdesign ed
a p
h at
i on
Ġw ho
a m
Ġ on
d ap
e l
i t
o p
Ġb e
i c
j ect
Ġ de
Ġa dap
Ġs ta
Ġp ro
Ġadap t
Ġsta b
Ġpro ject
H e
c a
e re
o w
Ġ (
Ġ h
Ġ He
Ġa r
Ġw ere
or y
Ġde v
i z
l y
m ory
s ion
Ġ re
Ġ del
Ġc an
Ġc all
he re
il iz
Ġme mory
Ġe as
am e
el op
Ġstab iliz
ca le
Ġdev elop
Ġdel ta
Ġstabiliz ed
) .
f f
i en
l ti
m es
o m
u lti
â Ģ
Ġ âĢ
Ġm ulti
ti mes
Ġt hat
Ġf or
Ġe ff
ic ien
ĠâĢ Ķ
Ġeff icien
Ġefficien t
A re
a re
d w
o f
v er
Ġ g
Ġ of
Ġ ver
Ġa re
Ġm is
ar dw
Ġh ardw
Ġmis sion
Ġhardw are
c al
s i
t en
u se
Ġ n
Ġ le
Ġa t
at ion
Ġc om
ou nd
Ġs o
Ġf ro
Ġon e
Ġadapt ation
Ġar ound
Ġeas y
times cale
Ġcom p
Ġfro m
N o
T hat
W here
Y ou
a ct
b le
c h
h ou
h in
l d
n y
o d
o l
o od
r u
r it
s pon
u re
Ġ k
Ġ in
Ġ use
Ġ That
Ġ ru
Ġc ame
Ġs hou
Ġw here
Ġw rit
ar n
ect ure
it ecture
Ġbe hin
Ġar ch
Ġre spon
Ġdevelop ed
Ġdevelop er
Ġg ood
Ġver y
si ble
Ġn ame
Ġle arn
Ġso le
Ġru n
Ġshou ld
Ġwrit ten
Ġbehin d
Ġarch itecture
Ġrespon sible
A s
D o
H ow
Y es
a cti
b ou
k s
n t
n ow
r acti
Ġ A
Ġ My
Ġa ny
Ġa bou
as ks
an y
Ġs ho
Ġw it
Ġt asks
ar t
Wh y
il y
Ġmo des
Ġp racti
Ġtrain ed
Ġtrain ing
el l
Ġeas ily
Ġefficient ly
Ġcomp act
Ġk now
Ġabou t
Ġsho w
Ġwit h
Ġmodes t
Ġpracti cal
C an
c i
e times
e ci
h y
h il
l ow
m ar
n g
n ing
o s
o t
o cal
p l
p en
p eci
q u
r am
s t
s on
s truction
s cale
s om
t h
Ġ or
on ing
as oning
Ġm ak
at h
ti on
Ġc he
Ġc hat
Ġs t
Ġs peci
de nt
de pen
Ġb ig
Ġw or
Ġt ell
Ġf ol
Ġl ocal
Ġto ol
Ġp er
Ġp art
Ġp hil
Ġp ath
Ġe x
op hy
Ġh is
Ġre asoning
Ġg ram
Ġver sion
Ġcomp any
Ġin struction
Ġin depen
Ġrun ning
ĠA I
low ing
os ophy
som etimes
Ġmak es
Ġche ap
Ġspeci al
dent ly
Ġwor k
Ġfol lowing
Ġper son
Ġphil osophy
Ġgram mar
Ġindepen dently
